D45A
F92D
F968
9F85
0B9E
E243
FE11
2849
1F63
0C4C
DAEF
19B6
F9CB
FDDA
F5EF
F60C
F6EC
EE34
E616
2F71
0BA4
F495
ED6A
FA7F
195A
D95D
094F
346A
226C
2093
FBAF
3399
04C2
E63B
F406
FF3E
F9C6
F8D2
0CBA
EE2B
254F
EF58
F417
F8DB
EABA
F08B
FBAD
FC43
57A1
25F8
E366
0D40
F664
23D5
FD3D
0B6E
E5D8
16F8
3646
FCAE
DE56
